{
    "param_encodings": {
        "conv1.weight": [
            {
                "bitwidth": 8,
                "dtype": "int",
                "is_symmetric": "True",
                "max": 0.20170550048351288,
                "min": -0.20329372584819794,
                "offset": -128,
                "scale": 0.0015882322331890464
            },
            {
                "bitwidth": 8,
                "dtype": "int",
                "is_symmetric": "True",
                "max": 0.2743202745914459,
                "min": -0.2764802873134613,
                "offset": -128,
                "scale": 0.0021600022446364164
            },
            {
                "bitwidth": 8,
                "dtype": "int",
                "is_symmetric": "True",
                "max": 0.27117592096328735,
                "min": -0.27331116795539856,
                "offset": -128,
                "scale": 0.0021352434996515512
            },
            {
                "bitwidth": 8,
                "dtype": "int",
                "is_symmetric": "True",
                "max": 0.29156294465065,
                "min": -0.29385870695114136,
                "offset": -128,
                "scale": 0.002295771148055792
            },
            {
                "bitwidth": 8,
                "dtype": "int",
                "is_symmetric": "True",
                "max": 0.2562156915664673,
                "min": -0.25823312997817993,
                "offset": -128,
                "scale": 0.0020174463279545307
            },
            {
                "bitwidth": 8,
                "dtype": "int",
                "is_symmetric": "True",
                "max": 0.34300902485847473,
                "min": -0.345709890127182,
                "offset": -128,
                "scale": 0.0027008585166186094
            },
            {
                "bitwidth": 8,
                "dtype": "int",
                "is_symmetric": "True",
                "max": 0.3072262704372406,
                "min": -0.3096453845500946,
                "offset": -128,
                "scale": 0.002419104566797614
            },
            {
                "bitwidth": 8,
                "dtype": "int",
                "is_symmetric": "True",
                "max": 0.3634962737560272,
                "min": -0.3663584589958191,
                "offset": -128,
                "scale": 0.0028621754609048367
            },
            {
                "bitwidth": 8,
                "dtype": "int",
                "is_symmetric": "True",
                "max": 0.33256959915161133,
                "min": -0.33518826961517334,
                "offset": -128,
                "scale": 0.0026186583563685417
            },
            {
                "bitwidth": 8,
                "dtype": "int",
                "is_symmetric": "True",
                "max": 0.25550535321235657,
                "min": -0.2575172185897827,
                "offset": -128,
                "scale": 0.0020118532702326775
            },
            {
                "bitwidth": 8,
                "dtype": "int",
                "is_symmetric": "True",
                "max": 0.33455362915992737,
                "min": -0.33718791604042053,
                "offset": -128,
                "scale": 0.0026342805940657854
            },
            {
                "bitwidth": 8,
                "dtype": "int",
                "is_symmetric": "True",
                "max": 0.24899204075336456,
                "min": -0.2509526014328003,
                "offset": -128,
                "scale": 0.0019605671986937523
            },
            {
                "bitwidth": 8,
                "dtype": "int",
                "is_symmetric": "True",
                "max": 0.2619832754135132,
                "min": -0.2640461325645447,
                "offset": -128,
                "scale": 0.0020628604106605053
            },
            {
                "bitwidth": 8,
                "dtype": "int",
                "is_symmetric": "True",
                "max": 0.31165561079978943,
                "min": -0.31410959362983704,
                "offset": -128,
                "scale": 0.002453981200233102
            },
            {
                "bitwidth": 8,
                "dtype": "int",
                "is_symmetric": "True",
                "max": 0.31267306208610535,
                "min": -0.31513506174087524,
                "offset": -128,
                "scale": 0.002461992669850588
            },
            {
                "bitwidth": 8,
                "dtype": "int",
                "is_symmetric": "True",
                "max": 0.2978426218032837,
                "min": -0.3001878261566162,
                "offset": -128,
                "scale": 0.002345217391848564
            },
            {
                "bitwidth": 8,
                "dtype": "int",
                "is_symmetric": "True",
                "max": 0.34845447540283203,
                "min": -0.3511981964111328,
                "offset": -128,
                "scale": 0.002743735909461975
            },
            {
                "bitwidth": 8,
                "dtype": "int",
                "is_symmetric": "True",
                "max": 0.36492934823036194,
                "min": -0.36780279874801636,
                "offset": -128,
                "scale": 0.002873459365218878
            },
            {
                "bitwidth": 8,
                "dtype": "int",
                "is_symmetric": "True",
                "max": 0.31589776277542114,
                "min": -0.31838515400886536,
                "offset": -128,
                "scale": 0.0024873840156942606
            },
            {
                "bitwidth": 8,
                "dtype": "int",
                "is_symmetric": "True",
                "max": 0.2887532413005829,
                "min": -0.29102689027786255,
                "offset": -128,
                "scale": 0.002273647580295801
            },
            {
                "bitwidth": 8,
                "dtype": "int",
                "is_symmetric": "True",
                "max": 0.31239962577819824,
                "min": -0.3148594796657562,
                "offset": -128,
                "scale": 0.0024598396848887205
            },
            {
                "bitwidth": 8,
                "dtype": "int",
                "is_symmetric": "True",
                "max": 0.33388692140579224,
                "min": -0.33651596307754517,
                "offset": -128,
                "scale": 0.0026290309615433216
            },
            {
                "bitwidth": 8,
                "dtype": "int",
                "is_symmetric": "True",
                "max": 0.2754148542881012,
                "min": -0.2775834798812866,
                "offset": -128,
                "scale": 0.0021686209365725517
            },
            {
                "bitwidth": 8,
                "dtype": "int",
                "is_symmetric": "True",
                "max": 0.2921505570411682,
                "min": -0.294450968503952,
                "offset": -128,
                "scale": 0.002300398191437125
            },
            {
                "bitwidth": 8,
                "dtype": "int",
                "is_symmetric": "True",
                "max": 0.341219037771225,
                "min": -0.34390580654144287,
                "offset": -128,
                "scale": 0.0026867641136050224
            },
            {
                "bitwidth": 8,
                "dtype": "int",
                "is_symmetric": "True",
                "max": 0.2999202013015747,
                "min": -0.30228176712989807,
                "offset": -128,
                "scale": 0.0023615763057023287
            },
            {
                "bitwidth": 8,
                "dtype": "int",
                "is_symmetric": "True",
                "max": 0.3164180517196655,
                "min": -0.31890952587127686,
                "offset": -128,
                "scale": 0.0024914806708693504
            },
            {
                "bitwidth": 8,
                "dtype": "int",
                "is_symmetric": "True",
                "max": 0.31275224685668945,
                "min": -0.3152148723602295,
                "offset": -128,
                "scale": 0.002462616190314293
            },
            {
                "bitwidth": 8,
                "dtype": "int",
                "is_symmetric": "True",
                "max": 0.30973008275032043,
                "min": -0.3121688961982727,
                "offset": -128,
                "scale": 0.0024388195015490055
            },
            {
                "bitwidth": 8,
                "dtype": "int",
                "is_symmetric": "True",
                "max": 0.3309422433376312,
                "min": -0.33354809880256653,
                "offset": -128,
                "scale": 0.002605844521895051
            },
            {
                "bitwidth": 8,
                "dtype": "int",
                "is_symmetric": "True",
                "max": 0.36915794014930725,
                "min": -0.3720647096633911,
                "offset": -128,
                "scale": 0.002906755544245243
            },
            {
                "bitwidth": 8,
                "dtype": "int",
                "is_symmetric": "True",
                "max": 0.3271316587924957,
                "min": -0.3297075033187866,
                "offset": -128,
                "scale": 0.0025758398696780205
            }
        ],
        "conv2.weight": [
            {
                "bitwidth": 8,
                "dtype": "int",
                "is_symmetric": "True",
                "max": 0.09811624139547348,
                "min": -0.0988888069987297,
                "offset": -128,
                "scale": 0.0007725688046775758
            },
            {
                "bitwidth": 8,
                "dtype": "int",
                "is_symmetric": "True",
                "max": 0.09629817306995392,
                "min": -0.09705642610788345,
                "offset": -128,
                "scale": 0.0007582533289678395
            },
            {
                "bitwidth": 8,
                "dtype": "int",
                "is_symmetric": "True",
                "max": 0.1003335639834404,
                "min": -0.10112359374761581,
                "offset": -128,
                "scale": 0.0007900280761532485
            },
            {
                "bitwidth": 8,
                "dtype": "int",
                "is_symmetric": "True",
                "max": 0.11999126523733139,
                "min": -0.1209360808134079,
                "offset": -128,
                "scale": 0.0009448131313547492
            },
            {
                "bitwidth": 8,
                "dtype": "int",
                "is_symmetric": "True",
                "max": 0.16987133026123047,
                "min": -0.17120890319347382,
                "offset": -128,
                "scale": 0.0013375695561990142
            },
            {
                "bitwidth": 8,
                "dtype": "int",
                "is_symmetric": "True",
                "max": 0.0960836187005043,
                "min": -0.09684018045663834,
                "offset": -128,
                "scale": 0.000756563909817487
            },
            {
                "bitwidth": 8,
                "dtype": "int",
                "is_symmetric": "True",
                "max": 0.1576341837644577,
                "min": -0.15887539088726044,
                "offset": -128,
                "scale": 0.0012412139913067222
            },
            {
                "bitwidth": 8,
                "dtype": "int",
                "is_symmetric": "True",
                "max": 0.14494746923446655,
                "min": -0.14608879387378693,
                "offset": -128,
                "scale": 0.0011413187021389604
            },
            {
                "bitwidth": 8,
                "dtype": "int",
                "is_symmetric": "True",
                "max": 0.11576128751039505,
                "min": -0.11667279154062271,
                "offset": -128,
                "scale": 0.0009115061839111149
            },
            {
                "bitwidth": 8,
                "dtype": "int",
                "is_symmetric": "True",
                "max": 0.10595839470624924,
                "min": -0.10679271072149277,
                "offset": -128,
                "scale": 0.0008343180525116622
            },
            {
                "bitwidth": 8,
                "dtype": "int",
                "is_symmetric": "True",
                "max": 0.10963530838489532,
                "min": -0.1104985773563385,
                "offset": -128,
                "scale": 0.0008632701355963945
            },
            {
                "bitwidth": 8,
                "dtype": "int",
                "is_symmetric": "True",
                "max": 0.13353335857391357,
                "min": -0.13458479940891266,
                "offset": -128,
                "scale": 0.0010514437453821301
            },
            {
                "bitwidth": 8,
                "dtype": "int",
                "is_symmetric": "True",
                "max": 0.10054388642311096,
                "min": -0.1013355702161789,
                "offset": -128,
                "scale": 0.0007916841423138976
            },
            {
                "bitwidth": 8,
                "dtype": "int",
                "is_symmetric": "True",
                "max": 0.15961988270282745,
                "min": -0.16087673604488373,
                "offset": -128,
                "scale": 0.0012568495003506541
            },
            {
                "bitwidth": 8,
                "dtype": "int",
                "is_symmetric": "True",
                "max": 0.11776526272296906,
                "min": -0.118692547082901,
                "offset": -128,
                "scale": 0.0009272855240851641
            },
            {
                "bitwidth": 8,
                "dtype": "int",
                "is_symmetric": "True",
                "max": 0.12477926164865494,
                "min": -0.12576177716255188,
                "offset": -128,
                "scale": 0.0009825138840824366
            },
            {
                "bitwidth": 8,
                "dtype": "int",
                "is_symmetric": "True",
                "max": 0.1225161924958229,
                "min": -0.123480886220932,
                "offset": -128,
                "scale": 0.0009646944236010313
            },
            {
                "bitwidth": 8,
                "dtype": "int",
                "is_symmetric": "True",
                "max": 0.09911270439624786,
                "min": -0.09989312291145325,
                "offset": -128,
                "scale": 0.0007804150227457285
            },
            {
                "bitwidth": 8,
                "dtype": "int",
                "is_symmetric": "True",
                "max": 0.11523163318634033,
                "min": -0.11613897234201431,
                "offset": -128,
                "scale": 0.0009073357214219868
            },
            {
                "bitwidth": 8,
                "dtype": "int",
                "is_symmetric": "True",
                "max": 0.13459651172161102,
                "min": -0.13565632700920105,
                "offset": -128,
                "scale": 0.0010598150547593832
            },
            {
                "bitwidth": 8,
                "dtype": "int",
                "is_symmetric": "True",
                "max": 0.09669366478919983,
                "min": -0.09745503216981888,
                "offset": -128,
                "scale": 0.00076136743882671
            },
            {
                "bitwidth": 8,
                "dtype": "int",
                "is_symmetric": "True",
                "max": 0.11117959767580032,
                "min": -0.11205502599477768,
                "offset": -128,
                "scale": 0.0008754298905842006
            },
            {
                "bitwidth": 8,
                "dtype": "int",
                "is_symmetric": "True",
                "max": 0.12373662739992142,
                "min": -0.12471093237400055,
                "offset": -128,
                "scale": 0.0009743041591718793
            },
            {
                "bitwidth": 8,
                "dtype": "int",
                "is_symmetric": "True",
                "max": 0.09473744034767151,
                "min": -0.09548340737819672,
                "offset": -128,
                "scale": 0.0007459641201421618
            },
            {
                "bitwidth": 8,
                "dtype": "int",
                "is_symmetric": "True",
                "max": 0.10161925107240677,
                "min": -0.1024194061756134,
                "offset": -128,
                "scale": 0.0008001516107469797
            },
            {
                "bitwidth": 8,
                "dtype": "int",
                "is_symmetric": "True",
                "max": 0.1214001402258873,
                "min": -0.12235604971647263,
                "offset": -128,
                "scale": 0.0009559066384099424
            },
            {
                "bitwidth": 8,
                "dtype": "int",
                "is_symmetric": "True",
                "max": 0.1068183109164238,
                "min": -0.10765939950942993,
                "offset": -128,
                "scale": 0.0008410890586674213
            },
            {
                "bitwidth": 8,
                "dtype": "int",
                "is_symmetric": "True",
                "max": 0.10865214467048645,
                "min": -0.10950767248868942,
                "offset": -128,
                "scale": 0.0008555286913178861
            },
            {
                "bitwidth": 8,
                "dtype": "int",
                "is_symmetric": "True",
                "max": 0.17482569813728333,
                "min": -0.17620228230953217,
                "offset": -128,
                "scale": 0.00137658033054322
            },
            {
                "bitwidth": 8,
                "dtype": "int",
                "is_symmetric": "True",
                "max": 0.09777788817882538,
                "min": -0.0985477939248085,
                "offset": -128,
                "scale": 0.0007699046400375664
            },
            {
                "bitwidth": 8,
                "dtype": "int",
                "is_symmetric": "True",
                "max": 0.11836957931518555,
                "min": -0.11930162459611893,
                "offset": -128,
                "scale": 0.0009320439421571791
            },
            {
                "bitwidth": 8,
                "dtype": "int",
                "is_symmetric": "True",
                "max": 0.1620369404554367,
                "min": -0.16331282258033752,
                "offset": -128,
                "scale": 0.001275881426408887
            },
            {
                "bitwidth": 8,
                "dtype": "int",
                "is_symmetric": "True",
                "max": 0.16180846095085144,
                "min": -0.1630825400352478,
                "offset": -128,
                "scale": 0.0012740823440253735
            },
            {
                "bitwidth": 8,
                "dtype": "int",
                "is_symmetric": "True",
                "max": 0.13843484222888947,
                "min": -0.13952487707138062,
                "offset": -128,
                "scale": 0.001090038102120161
            },
            {
                "bitwidth": 8,
                "dtype": "int",
                "is_symmetric": "True",
                "max": 0.137274369597435,
                "min": -0.13835527002811432,
                "offset": -128,
                "scale": 0.0010809005470946431
            },
            {
                "bitwidth": 8,
                "dtype": "int",
                "is_symmetric": "True",
                "max": 0.14744412899017334,
                "min": -0.1486051082611084,
                "offset": -128,
                "scale": 0.0011609774082899094
            },
            {
                "bitwidth": 8,
                "dtype": "int",
                "is_symmetric": "True",
                "max": 0.10421165078878403,
                "min": -0.10503221303224564,
                "offset": -128,
                "scale": 0.000820564164314419
            },
            {
                "bitwidth": 8,
                "dtype": "int",
                "is_symmetric": "True",
                "max": 0.1434057354927063,
                "min": -0.1445349156856537,
                "offset": -128,
                "scale": 0.0011291790287941694
            },
            {
                "bitwidth": 8,
                "dtype": "int",
                "is_symmetric": "True",
                "max": 0.14399783313274384,
                "min": -0.1451316773891449,
                "offset": -128,
                "scale": 0.0011338412296026945
            },
            {
                "bitwidth": 8,
                "dtype": "int",
                "is_symmetric": "True",
                "max": 0.11894838511943817,
                "min": -0.11988499015569687,
                "offset": -128,
                "scale": 0.0009366014855913818
            },
            {
                "bitwidth": 8,
                "dtype": "int",
                "is_symmetric": "True",
                "max": 0.16820918023586273,
                "min": -0.1695336550474167,
                "offset": -128,
                "scale": 0.0013244816800579429
            },
            {
                "bitwidth": 8,
                "dtype": "int",
                "is_symmetric": "True",
                "max": 0.11717984080314636,
                "min": -0.11810251325368881,
                "offset": -128,
                "scale": 0.0009226758847944438
            },
            {
                "bitwidth": 8,
                "dtype": "int",
                "is_symmetric": "True",
                "max": 0.1375722736120224,
                "min": -0.13865551352500916,
                "offset": -128,
                "scale": 0.001083246199414134
            },
            {
                "bitwidth": 8,
                "dtype": "int",
                "is_symmetric": "True",
                "max": 0.1320597529411316,
                "min": -0.13309960067272186,
                "offset": -128,
                "scale": 0.0010398406302556396
            },
            {
                "bitwidth": 8,
                "dtype": "int",
                "is_symmetric": "True",
                "max": 0.12201397120952606,
                "min": -0.1229747086763382,
                "offset": -128,
                "scale": 0.0009607399115338922
            },
            {
                "bitwidth": 8,
                "dtype": "int",
                "is_symmetric": "True",
                "max": 0.16159047186374664,
                "min": -0.1628628373146057,
                "offset": -128,
                "scale": 0.0012723659165203571
            },
            {
                "bitwidth": 8,
                "dtype": "int",
                "is_symmetric": "True",
                "max": 0.1550360471010208,
                "min": -0.1562568098306656,
                "offset": -128,
                "scale": 0.001220756326802075
            },
            {
                "bitwidth": 8,
                "dtype": "int",
                "is_symmetric": "True",
                "max": 0.13923588395118713,
                "min": -0.14033222198486328,
                "offset": -128,
                "scale": 0.0010963454842567444
            },
            {
                "bitwidth": 8,
                "dtype": "int",
                "is_symmetric": "True",
                "max": 0.105060875415802,
                "min": -0.10588812828063965,
                "offset": -128,
                "scale": 0.0008272510021924973
            },
            {
                "bitwidth": 8,
                "dtype": "int",
                "is_symmetric": "True",
                "max": 0.1175708919763565,
                "min": -0.11849664896726608,
                "offset": -128,
                "scale": 0.0009257550700567663
            },
            {
                "bitwidth": 8,
                "dtype": "int",
                "is_symmetric": "True",
                "max": 0.11842088401317596,
                "min": -0.11935333162546158,
                "offset": -128,
                "scale": 0.0009324479033239186
            },
            {
                "bitwidth": 8,
                "dtype": "int",
                "is_symmetric": "True",
                "max": 0.12315147370100021,
                "min": -0.12412116676568985,
                "offset": -128,
                "scale": 0.000969696615356952
            },
            {
                "bitwidth": 8,
                "dtype": "int",
                "is_symmetric": "True",
                "max": 0.10112030804157257,
                "min": -0.10191652923822403,
                "offset": -128,
                "scale": 0.0007962228846736252
            },
            {
                "bitwidth": 8,
                "dtype": "int",
                "is_symmetric": "True",
                "max": 0.08692388981580734,
                "min": -0.08760832995176315,
                "offset": -128,
                "scale": 0.0006844400777481496
            },
            {
                "bitwidth": 8,
                "dtype": "int",
                "is_symmetric": "True",
                "max": 0.12634646892547607,
                "min": -0.12734133005142212,
                "offset": -128,
                "scale": 0.0009948541410267353
            },
            {
                "bitwidth": 8,
                "dtype": "int",
                "is_symmetric": "True",
                "max": 0.1510240137577057,
                "min": -0.1522131860256195,
                "offset": -128,
                "scale": 0.0011891655158251524
            },
            {
                "bitwidth": 8,
                "dtype": "int",
                "is_symmetric": "True",
                "max": 0.13055948913097382,
                "min": -0.13158752024173737,
                "offset": -128,
                "scale": 0.0010280275018885732
            },
            {
                "bitwidth": 8,
                "dtype": "int",
                "is_symmetric": "True",
                "max": 0.10618236660957336,
                "min": -0.10701844841241837,
                "offset": -128,
                "scale": 0.0008360816282220185
            },
            {
                "bitwidth": 8,
                "dtype": "int",
                "is_symmetric": "True",
                "max": 0.12718942761421204,
                "min": -0.12819091975688934,
                "offset": -128,
                "scale": 0.001001491560600698
            },
            {
                "bitwidth": 8,
                "dtype": "int",
                "is_symmetric": "True",
                "max": 0.1141793355345726,
                "min": -0.1150783821940422,
                "offset": -128,
                "scale": 0.0008990498608909547
            },
            {
                "bitwidth": 8,
                "dtype": "int",
                "is_symmetric": "True",
                "max": 0.16439293324947357,
                "min": -0.16568736732006073,
                "offset": -128,
                "scale": 0.0012944325571879745
            },
            {
                "bitwidth": 8,
                "dtype": "int",
                "is_symmetric": "True",
                "max": 0.15653276443481445,
                "min": -0.15776529908180237,
                "offset": -128,
                "scale": 0.001232541399076581
            },
            {
                "bitwidth": 8,
                "dtype": "int",
                "is_symmetric": "True",
                "max": 0.1163145899772644,
                "min": -0.11723045259714127,
                "offset": -128,
                "scale": 0.0009158629109151661
            },
            {
                "bitwidth": 8,
                "dtype": "int",
                "is_symmetric": "True",
                "max": 0.10354892164468765,
                "min": -0.10436426848173141,
                "offset": -128,
                "scale": 0.0008153458475135267
            }
        ],
        "conv3.weight": [
            {
                "bitwidth": 8,
                "dtype": "int",
                "is_symmetric": "True",
                "max": 0.07944779098033905,
                "min": -0.08007336407899857,
                "offset": -128,
                "scale": 0.0006255731568671763
            },
            {
                "bitwidth": 8,
                "dtype": "int",
                "is_symmetric": "True",
                "max": 0.14448122680187225,
                "min": -0.14561887085437775,
                "offset": -128,
                "scale": 0.0011376474285498261
            },
            {
                "bitwidth": 8,
                "dtype": "int",
                "is_symmetric": "True",
                "max": 0.08766736090183258,
                "min": -0.08835765719413757,
                "offset": -128,
                "scale": 0.0006902941968291998
            },
            {
                "bitwidth": 8,
                "dtype": "int",
                "is_symmetric": "True",
                "max": 0.1011963039636612,
                "min": -0.101993128657341,
                "offset": -128,
                "scale": 0.0007968213176354766
            },
            {
                "bitwidth": 8,
                "dtype": "int",
                "is_symmetric": "True",
                "max": 0.13681012392044067,
                "min": -0.1378873735666275,
                "offset": -128,
                "scale": 0.0010772451059892774
            },
            {
                "bitwidth": 8,
                "dtype": "int",
                "is_symmetric": "True",
                "max": 0.07826878130435944,
                "min": -0.07888507097959518,
                "offset": -128,
                "scale": 0.0006162896170280874
            },
            {
                "bitwidth": 8,
                "dtype": "int",
                "is_symmetric": "True",
                "max": 0.13019946217536926,
                "min": -0.13122466206550598,
                "offset": -128,
                "scale": 0.0010251926723867655
            },
            {
                "bitwidth": 8,
                "dtype": "int",
                "is_symmetric": "True",
                "max": 0.13313472270965576,
                "min": -0.13418303430080414,
                "offset": -128,
                "scale": 0.0010483049554750323
            },
            {
                "bitwidth": 8,
                "dtype": "int",
                "is_symmetric": "True",
                "max": 0.13208194077014923,
                "min": -0.13312195241451263,
                "offset": -128,
                "scale": 0.00104001525323838
            },
            {
                "bitwidth": 8,
                "dtype": "int",
                "is_symmetric": "True",
                "max": 0.10304271429777145,
                "min": -0.10385407507419586,
                "offset": -128,
                "scale": 0.0008113599615171552
            },
            {
                "bitwidth": 8,
                "dtype": "int",
                "is_symmetric": "True",
                "max": 0.13459540903568268,
                "min": -0.1356552094221115,
                "offset": -128,
                "scale": 0.0010598063236102462
            },
            {
                "bitwidth": 8,
                "dtype": "int",
                "is_symmetric": "True",
                "max": 0.10377736389636993,
                "min": -0.10459450632333755,
                "offset": -128,
                "scale": 0.0008171445806510746
            },
            {
                "bitwidth": 8,
                "dtype": "int",
                "is_symmetric": "True",
                "max": 0.10865133255720139,
                "min": -0.10950685292482376,
                "offset": -128,
                "scale": 0.0008555222884751856
            },
            {
                "bitwidth": 8,
                "dtype": "int",
                "is_symmetric": "True",
                "max": 0.09886867552995682,
                "min": -0.0996471717953682,
                "offset": -128,
                "scale": 0.000778493529651314
            },
            {
                "bitwidth": 8,
                "dtype": "int",
                "is_symmetric": "True",
                "max": 0.14062611758708954,
                "min": -0.14173340797424316,
                "offset": -128,
                "scale": 0.0011072922497987747
            },
            {
                "bitwidth": 8,
                "dtype": "int",
                "is_symmetric": "True",
                "max": 0.13979986310005188,
                "min": -0.140900656580925,
                "offset": -128,
                "scale": 0.0011007863795384765
            },
            {
                "bitwidth": 8,
                "dtype": "int",
                "is_symmetric": "True",
                "max": 0.16441774368286133,
                "min": -0.165712371468544,
                "offset": -128,
                "scale": 0.001294627902098
            },
            {
                "bitwidth": 8,
                "dtype": "int",
                "is_symmetric": "True",
                "max": 0.11792783439159393,
                "min": -0.11885640025138855,
                "offset": -128,
                "scale": 0.000928565626963973
            },
            {
                "bitwidth": 8,
                "dtype": "int",
                "is_symmetric": "True",
                "max": 0.14923736453056335,
                "min": -0.150412455201149,
                "offset": -128,
                "scale": 0.0011750973062589765
            },
            {
                "bitwidth": 8,
                "dtype": "int",
                "is_symmetric": "True",
                "max": 0.09632027894258499,
                "min": -0.09707870334386826,
                "offset": -128,
                "scale": 0.0007584273698739707
            },
            {
                "bitwidth": 8,
                "dtype": "int",
                "is_symmetric": "True",
                "max": 0.13448846340179443,
                "min": -0.1355474293231964,
                "offset": -128,
                "scale": 0.001058964291587472
            },
            {
                "bitwidth": 8,
                "dtype": "int",
                "is_symmetric": "True",
                "max": 0.09027409553527832,
                "min": -0.09098491817712784,
                "offset": -128,
                "scale": 0.0007108196732588112
            },
            {
                "bitwidth": 8,
                "dtype": "int",
                "is_symmetric": "True",
                "max": 0.10775411128997803,
                "min": -0.10860256850719452,
                "offset": -128,
                "scale": 0.0008484575664624572
            },
            {
                "bitwidth": 8,
                "dtype": "int",
                "is_symmetric": "True",
                "max": 0.11691372841596603,
                "min": -0.11783430725336075,
                "offset": -128,
                "scale": 0.0009205805254168808
            },
            {
                "bitwidth": 8,
                "dtype": "int",
                "is_symmetric": "True",
                "max": 0.10295038670301437,
                "min": -0.10376101732254028,
                "offset": -128,
                "scale": 0.000810632947832346
            },
            {
                "bitwidth": 8,
                "dtype": "int",
                "is_symmetric": "True",
                "max": 0.12095533311367035,
                "min": -0.12190774083137512,
                "offset": -128,
                "scale": 0.0009524042252451181
            },
            {
                "bitwidth": 8,
                "dtype": "int",
                "is_symmetric": "True",
                "max": 0.0992470234632492,
                "min": -0.10002849251031876,
                "offset": -128,
                "scale": 0.0007814725977368653
            },
            {
                "bitwidth": 8,
                "dtype": "int",
                "is_symmetric": "True",
                "max": 0.1525779664516449,
                "min": -0.15377937257289886,
                "offset": -128,
                "scale": 0.0012014013482257724
            },
            {
                "bitwidth": 8,
                "dtype": "int",
                "is_symmetric": "True",
                "max": 0.11374405026435852,
                "min": -0.11463966965675354,
                "offset": -128,
                "scale": 0.000895622419193387
            },
            {
                "bitwidth": 8,
                "dtype": "int",
                "is_symmetric": "True",
                "max": 0.1002449318766594,
                "min": -0.1010342612862587,
                "offset": -128,
                "scale": 0.0007893301662988961
            },
            {
                "bitwidth": 8,
                "dtype": "int",
                "is_symmetric": "True",
                "max": 0.13943250477313995,
                "min": -0.14053039252758026,
                "offset": -128,
                "scale": 0.0010978936916217208
            },
            {
                "bitwidth": 8,
                "dtype": "int",
                "is_symmetric": "True",
                "max": 0.1358114629983902,
                "min": -0.13688084483146667,
                "offset": -128,
                "scale": 0.0010693816002458334
            },
            {
                "bitwidth": 8,
                "dtype": "int",
                "is_symmetric": "True",
                "max": 0.1240793839097023,
                "min": -0.12505638599395752,
                "offset": -128,
                "scale": 0.0009770030155777931
            },
            {
                "bitwidth": 8,
                "dtype": "int",
                "is_symmetric": "True",
                "max": 0.1348067969083786,
                "min": -0.13586826622486115,
                "offset": -128,
                "scale": 0.0010614708298817277
            },
            {
                "bitwidth": 8,
                "dtype": "int",
                "is_symmetric": "True",
                "max": 0.10178101062774658,
                "min": -0.1025824323296547,
                "offset": -128,
                "scale": 0.0008014252525754273
            },
            {
                "bitwidth": 8,
                "dtype": "int",
                "is_symmetric": "True",
                "max": 0.1052771508693695,
                "min": -0.10610610246658325,
                "offset": -128,
                "scale": 0.0008289539255201817
            },
            {
                "bitwidth": 8,
                "dtype": "int",
                "is_symmetric": "True",
                "max": 0.1244683563709259,
                "min": -0.12544842064380646,
                "offset": -128,
                "scale": 0.000980065786279738
            },
            {
                "bitwidth": 8,
                "dtype": "int",
                "is_symmetric": "True",
                "max": 0.14748908579349518,
                "min": -0.1486504226922989,
                "offset": -128,
                "scale": 0.001161331427283585
            },
            {
                "bitwidth": 8,
                "dtype": "int",
                "is_symmetric": "True",
                "max": 0.11098828166723251,
                "min": -0.11186220496892929,
                "offset": -128,
                "scale": 0.0008739234763197601
            },
            {
                "bitwidth": 8,
                "dtype": "int",
                "is_symmetric": "True",
                "max": 0.1338978260755539,
                "min": -0.1349521428346634,
                "offset": -128,
                "scale": 0.0010543136158958077
            },
            {
                "bitwidth": 8,
                "dtype": "int",
                "is_symmetric": "True",
                "max": 0.1326521635055542,
                "min": -0.13369667530059814,
                "offset": -128,
                "scale": 0.001044505275785923
            },
            {
                "bitwidth": 8,
                "dtype": "int",
                "is_symmetric": "True",
                "max": 0.0894123986363411,
                "min": -0.09011643379926682,
                "offset": -128,
                "scale": 0.000704034639056772
            },
            {
                "bitwidth": 8,
                "dtype": "int",
                "is_symmetric": "True",
                "max": 0.08978752046823502,
                "min": -0.09049450606107712,
                "offset": -128,
                "scale": 0.000706988328602165
            },
            {
                "bitwidth": 8,
                "dtype": "int",
                "is_symmetric": "True",
                "max": 0.09584111720323563,
                "min": -0.09659577161073685,
                "offset": -128,
                "scale": 0.0007546544657088816
            },
            {
                "bitwidth": 8,
                "dtype": "int",
                "is_symmetric": "True",
                "max": 0.13006214797496796,
                "min": -0.13108626008033752,
                "offset": -128,
                "scale": 0.001024111406877637
            },
            {
                "bitwidth": 8,
                "dtype": "int",
                "is_symmetric": "True",
                "max": 0.12577186524868011,
                "min": -0.12676219642162323,
                "offset": -128,
                "scale": 0.0009903296595439315
            },
            {
                "bitwidth": 8,
                "dtype": "int",
                "is_symmetric": "True",
                "max": 0.09718646854162216,
                "min": -0.09795171767473221,
                "offset": -128,
                "scale": 0.0007652477943338454
            },
            {
                "bitwidth": 8,
                "dtype": "int",
                "is_symmetric": "True",
                "max": 0.14444634318351746,
                "min": -0.14558371901512146,
                "offset": -128,
                "scale": 0.0011373728048056364
            },
            {
                "bitwidth": 8,
                "dtype": "int",
                "is_symmetric": "True",
                "max": 0.10847572237253189,
                "min": -0.10932986438274384,
                "offset": -128,
                "scale": 0.0008541395654901862
            },
            {
                "bitwidth": 8,
                "dtype": "int",
                "is_symmetric": "True",
                "max": 0.09020644426345825,
                "min": -0.09091673046350479,
                "offset": -128,
                "scale": 0.0007102869567461312
            },
            {
                "bitwidth": 8,
                "dtype": "int",
                "is_symmetric": "True",
                "max": 0.14493606984615326,
                "min": -0.14607730507850647,
                "offset": -128,
                "scale": 0.0011412289459258318
            },
            {
                "bitwidth": 8,
                "dtype": "int",
                "is_symmetric": "True",
                "max": 0.11039269715547562,
                "min": -0.11126193404197693,
                "offset": -128,
                "scale": 0.0008692338597029448
            },
            {
                "bitwidth": 8,
                "dtype": "int",
                "is_symmetric": "True",
                "max": 0.12952911853790283,
                "min": -0.13054902851581573,
                "offset": -128,
                "scale": 0.0010199142852798104
            },
            {
                "bitwidth": 8,
                "dtype": "int",
                "is_symmetric": "True",
                "max": 0.10260429978370667,
                "min": -0.1034122109413147,
                "offset": -128,
                "scale": 0.0008079078979790211
            },
            {
                "bitwidth": 8,
                "dtype": "int",
                "is_symmetric": "True",
                "max": 0.10089850425720215,
                "min": -0.10169298201799393,
                "offset": -128,
                "scale": 0.0007944764220155776
            },
            {
                "bitwidth": 8,
                "dtype": "int",
                "is_symmetric": "True",
                "max": 0.1009540930390358,
                "min": -0.1017490103840828,
                "offset": -128,
                "scale": 0.0007949141436256468
            },
            {
                "bitwidth": 8,
                "dtype": "int",
                "is_symmetric": "True",
                "max": 0.11776875704526901,
                "min": -0.11869607120752335,
                "offset": -128,
                "scale": 0.0009273130563087761
            },
            {
                "bitwidth": 8,
                "dtype": "int",
                "is_symmetric": "True",
                "max": 0.15071794390678406,
                "min": -0.15190470218658447,
                "offset": -128,
                "scale": 0.0011867554858326912
            },
            {
                "bitwidth": 8,
                "dtype": "int",
                "is_symmetric": "True",
                "max": 0.15483953058719635,
                "min": -0.15605874359607697,
                "offset": -128,
                "scale": 0.0012192089343443513
            },
            {
                "bitwidth": 8,
                "dtype": "int",
                "is_symmetric": "True",
                "max": 0.13329008221626282,
                "min": -0.1343396157026291,
                "offset": -128,
                "scale": 0.0010495282476767898
            },
            {
                "bitwidth": 8,
                "dtype": "int",
                "is_symmetric": "True",
                "max": 0.12449919432401657,
                "min": -0.12547950446605682,
                "offset": -128,
                "scale": 0.000980308628641069
            },
            {
                "bitwidth": 8,
                "dtype": "int",
                "is_symmetric": "True",
                "max": 0.10328967124223709,
                "min": -0.1041029766201973,
                "offset": -128,
                "scale": 0.0008133045048452914
            },
            {
                "bitwidth": 8,
                "dtype": "int",
                "is_symmetric": "True",
                "max": 0.11685177683830261,
                "min": -0.11777187138795853,
                "offset": -128,
                "scale": 0.000920092745218426
            },
            {
                "bitwidth": 8,
                "dtype": "int",
                "is_symmetric": "True",
                "max": 0.1200789138674736,
                "min": -0.12102441489696503,
                "offset": -128,
                "scale": 0.0009455032413825393
            },
            {
                "bitwidth": 8,
                "dtype": "int",
                "is_symmetric": "True",
                "max": 0.07119213044643402,
                "min": -0.07175269722938538,
                "offset": -128,
                "scale": 0.0005605679471045732
            },
            {
                "bitwidth": 8,
                "dtype": "int",
                "is_symmetric": "True",
                "max": 0.10102324187755585,
                "min": -0.10181870311498642,
                "offset": -128,
                "scale": 0.0007954586180858314
            },
            {
                "bitwidth": 8,
                "dtype": "int",
                "is_symmetric": "True",
                "max": 0.1078343465924263,
                "min": -0.10868343710899353,
                "offset": -128,
                "scale": 0.000849089352414012
            },
            {
                "bitwidth": 8,
                "dtype": "int",
                "is_symmetric": "True",
                "max": 0.1356986165046692,
                "min": -0.13676710426807404,
                "offset": -128,
                "scale": 0.0010684930020943284
            },
            {
                "bitwidth": 8,
                "dtype": "int",
                "is_symmetric": "True",
                "max": 0.10399848222732544,
                "min": -0.10481736809015274,
                "offset": -128,
                "scale": 0.0008188856882043183
            },
            {
                "bitwidth": 8,
                "dtype": "int",
                "is_symmetric": "True",
                "max": 0.08624275028705597,
                "min": -0.086921826004982,
                "offset": -128,
                "scale": 0.0006790767656639218
            },
            {
                "bitwidth": 8,
                "dtype": "int",
                "is_symmetric": "True",
                "max": 0.13568171858787537,
                "min": -0.13675007224082947,
                "offset": -128,
                "scale": 0.0010683599393814802
            },
            {
                "bitwidth": 8,
                "dtype": "int",
                "is_symmetric": "True",
                "max": 0.09825563430786133,
                "min": -0.0990293025970459,
                "offset": -128,
                "scale": 0.0007736664265394211
            },
            {
                "bitwidth": 8,
                "dtype": "int",
                "is_symmetric": "True",
                "max": 0.12147718667984009,
                "min": -0.12243369966745377,
                "offset": -128,
                "scale": 0.0009565132786519825
            },
            {
                "bitwidth": 8,
                "dtype": "int",
                "is_symmetric": "True",
                "max": 0.1163521558046341,
                "min": -0.11726831644773483,
                "offset": -128,
                "scale": 0.0009161587222479284
            },
            {
                "bitwidth": 8,
                "dtype": "int",
                "is_symmetric": "True",
                "max": 0.06540615111589432,
                "min": -0.06592115759849548,
                "offset": -128,
                "scale": 0.000515009043738246
            },
            {
                "bitwidth": 8,
                "dtype": "int",
                "is_symmetric": "True",
                "max": 0.12322624772787094,
                "min": -0.12419653683900833,
                "offset": -128,
                "scale": 0.0009702854440547526
            },
            {
                "bitwidth": 8,
                "dtype": "int",
                "is_symmetric": "True",
                "max": 0.09022512286901474,
                "min": -0.09093555808067322,
                "offset": -128,
                "scale": 0.0007104340475052595
            },
            {
                "bitwidth": 8,
                "dtype": "int",
                "is_symmetric": "True",
                "max": 0.0989103764295578,
                "min": -0.09968920052051544,
                "offset": -128,
                "scale": 0.0007788218790665269
            },
            {
                "bitwidth": 8,
                "dtype": "int",
                "is_symmetric": "True",
                "max": 0.13742320239543915,
                "min": -0.13850528001785278,
                "offset": -128,
                "scale": 0.0010820725001394749
            },
            {
                "bitwidth": 8,
                "dtype": "int",
                "is_symmetric": "True",
                "max": 0.11167880892753601,
                "min": -0.11255817115306854,
                "offset": -128,
                "scale": 0.000879360712133348
            },
            {
                "bitwidth": 8,
                "dtype": "int",
                "is_symmetric": "True",
                "max": 0.10783122479915619,
                "min": -0.10868029296398163,
                "offset": -128,
                "scale": 0.0008490647887811065
            },
            {
                "bitwidth": 8,
                "dtype": "int",
                "is_symmetric": "True",
                "max": 0.09420721977949142,
                "min": -0.09494900703430176,
                "offset": -128,
                "scale": 0.0007417891174554825
            },
            {
                "bitwidth": 8,
                "dtype": "int",
                "is_symmetric": "True",
                "max": 0.0974576473236084,
                "min": -0.09822502732276917,
                "offset": -128,
                "scale": 0.0007673830259591341
            },
            {
                "bitwidth": 8,
                "dtype": "int",
                "is_symmetric": "True",
                "max": 0.1320144683122635,
                "min": -0.1330539584159851,
                "offset": -128,
                "scale": 0.0010394840501248837
            },
            {
                "bitwidth": 8,
                "dtype": "int",
                "is_symmetric": "True",
                "max": 0.11113893985748291,
                "min": -0.1120140478014946,
                "offset": -128,
                "scale": 0.0008751097484491765
            },
            {
                "bitwidth": 8,
                "dtype": "int",
                "is_symmetric": "True",
                "max": 0.10155237466096878,
                "min": -0.10235200077295303,
                "offset": -128,
                "scale": 0.0007996250060386956
            },
            {
                "bitwidth": 8,
                "dtype": "int",
                "is_symmetric": "True",
                "max": 0.08531877398490906,
                "min": -0.08599057793617249,
                "offset": -128,
                "scale": 0.0006718013901263475
            },
            {
                "bitwidth": 8,
                "dtype": "int",
                "is_symmetric": "True",
                "max": 0.11974850296974182,
                "min": -0.12069140374660492,
                "offset": -128,
                "scale": 0.0009429015917703509
            },
            {
                "bitwidth": 8,
                "dtype": "int",
                "is_symmetric": "True",
                "max": 0.1586698293685913,
                "min": -0.15991920232772827,
                "offset": -128,
                "scale": 0.0012493687681853771
            },
            {
                "bitwidth": 8,
                "dtype": "int",
                "is_symmetric": "True",
                "max": 0.07248189300298691,
                "min": -0.07305261492729187,
                "offset": -128,
                "scale": 0.0005707235541194677
            },
            {
                "bitwidth": 8,
                "dtype": "int",
                "is_symmetric": "True",
                "max": 0.15004554390907288,
                "min": -0.15122701227664948,
                "offset": -128,
                "scale": 0.001181461033411324
            },
            {
                "bitwidth": 8,
                "dtype": "int",
                "is_symmetric": "True",
                "max": 0.0947534441947937,
                "min": -0.09549953788518906,
                "offset": -128,
                "scale": 0.0007460901397280395
            },
            {
                "bitwidth": 8,
                "dtype": "int",
                "is_symmetric": "True",
                "max": 0.11661573499441147,
                "min": -0.11753396689891815,
                "offset": -128,
                "scale": 0.0009182341163977981
            },
            {
                "bitwidth": 8,
                "dtype": "int",
                "is_symmetric": "True",
                "max": 0.111522376537323,
                "min": -0.11240050196647644,
                "offset": -128,
                "scale": 0.0008781289216130972
            },
            {
                "bitwidth": 8,
                "dtype": "int",
                "is_symmetric": "True",
                "max": 0.10528633743524551,
                "min": -0.10611536353826523,
                "offset": -128,
                "scale": 0.0008290262776426971
            },
            {
                "bitwidth": 8,
                "dtype": "int",
                "is_symmetric": "True",
                "max": 0.09442606568336487,
                "min": -0.09516958147287369,
                "offset": -128,
                "scale": 0.0007435123552568257
            },
            {
                "bitwidth": 8,
                "dtype": "int",
                "is_symmetric": "True",
                "max": 0.06657033413648605,
                "min": -0.06709451228380203,
                "offset": -128,
                "scale": 0.0005241758772172034
            },
            {
                "bitwidth": 8,
                "dtype": "int",
                "is_symmetric": "True",
                "max": 0.10469348728656769,
                "min": -0.10551784187555313,
                "offset": -128,
                "scale": 0.0008243581396527588
            },
            {
                "bitwidth": 8,
                "dtype": "int",
                "is_symmetric": "True",
                "max": 0.1286959946155548,
                "min": -0.12970934808254242,
                "offset": -128,
                "scale": 0.0010133542818948627
            },
            {
                "bitwidth": 8,
                "dtype": "int",
                "is_symmetric": "True",
                "max": 0.10166338831186295,
                "min": -0.10246388614177704,
                "offset": -128,
                "scale": 0.0008004991104826331
            },
            {
                "bitwidth": 8,
                "dtype": "int",
                "is_symmetric": "True",
                "max": 0.08897249400615692,
                "min": -0.08967306464910507,
                "offset": -128,
                "scale": 0.0007005708175711334
            },
            {
                "bitwidth": 8,
                "dtype": "int",
                "is_symmetric": "True",
                "max": 0.11771699041128159,
                "min": -0.11864389479160309,
                "offset": -128,
                "scale": 0.0009269054280593991
            },
            {
                "bitwidth": 8,
                "dtype": "int",
                "is_symmetric": "True",
                "max": 0.13886496424674988,
                "min": -0.13995838165283203,
                "offset": -128,
                "scale": 0.0010934248566627502
            },
            {
                "bitwidth": 8,
                "dtype": "int",
                "is_symmetric": "True",
                "max": 0.10490986704826355,
                "min": -0.10573592782020569,
                "offset": -128,
                "scale": 0.0008260619360953569
            },
            {
                "bitwidth": 8,
                "dtype": "int",
                "is_symmetric": "True",
                "max": 0.05842304974794388,
                "min": -0.058883074671030045,
                "offset": -128,
                "scale": 0.0004600240208674222
            },
            {
                "bitwidth": 8,
                "dtype": "int",
                "is_symmetric": "True",
                "max": 0.1389290988445282,
                "min": -0.14002302289009094,
                "offset": -128,
                "scale": 0.0010939298663288355
            },
            {
                "bitwidth": 8,
                "dtype": "int",
                "is_symmetric": "True",
                "max": 0.11681927740573883,
                "min": -0.11773911118507385,
                "offset": -128,
                "scale": 0.0009198368061333895
            },
            {
                "bitwidth": 8,
                "dtype": "int",
                "is_symmetric": "True",
                "max": 0.09762886166572571,
                "min": -0.09839759021997452,
                "offset": -128,
                "scale": 0.0007687311735935509
            },
            {
                "bitwidth": 8,
                "dtype": "int",
                "is_symmetric": "True",
                "max": 0.16090789437294006,
                "min": -0.16217488050460815,
                "offset": -128,
                "scale": 0.0012669912539422512
            },
            {
                "bitwidth": 8,
                "dtype": "int",
                "is_symmetric": "True",
                "max": 0.14366941154003143,
                "min": -0.14480066299438477,
                "offset": -128,
                "scale": 0.001131255179643631
            },
            {
                "bitwidth": 8,
                "dtype": "int",
                "is_symmetric": "True",
                "max": 0.14261376857757568,
                "min": -0.14373670518398285,
                "offset": -128,
                "scale": 0.001122943009249866
            },
            {
                "bitwidth": 8,
                "dtype": "int",
                "is_symmetric": "True",
                "max": 0.12487110495567322,
                "min": -0.12585434317588806,
                "offset": -128,
                "scale": 0.0009832370560616255
            },
            {
                "bitwidth": 8,
                "dtype": "int",
                "is_symmetric": "True",
                "max": 0.12550753355026245,
                "min": -0.12649577856063843,
                "offset": -128,
                "scale": 0.0009882482700049877
            },
            {
                "bitwidth": 8,
                "dtype": "int",
                "is_symmetric": "True",
                "max": 0.12413164973258972,
                "min": -0.12510906159877777,
                "offset": -128,
                "scale": 0.0009774145437404513
            },
            {
                "bitwidth": 8,
                "dtype": "int",
                "is_symmetric": "True",
                "max": 0.12277844548225403,
                "min": -0.12374520301818848,
                "offset": -128,
                "scale": 0.0009667593985795975
            },
            {
                "bitwidth": 8,
                "dtype": "int",
                "is_symmetric": "True",
                "max": 0.10847863554954529,
                "min": -0.10933279991149902,
                "offset": -128,
                "scale": 0.0008541624993085861
            },
            {
                "bitwidth": 8,
                "dtype": "int",
                "is_symmetric": "True",
                "max": 0.09591343253850937,
                "min": -0.09666865319013596,
                "offset": -128,
                "scale": 0.0007552238530479372
            },
            {
                "bitwidth": 8,
                "dtype": "int",
                "is_symmetric": "True",
                "max": 0.11241402477025986,
                "min": -0.1132991760969162,
                "offset": -128,
                "scale": 0.0008851498132571578
            },
            {
                "bitwidth": 8,
                "dtype": "int",
                "is_symmetric": "True",
                "max": 0.1075318455696106,
                "min": -0.10837855190038681,
                "offset": -128,
                "scale": 0.000846707436721772
            },
            {
                "bitwidth": 8,
                "dtype": "int",
                "is_symmetric": "True",
                "max": 0.0682067945599556,
                "min": -0.06874385476112366,
                "offset": -128,
                "scale": 0.0005370613653212786
            },
            {
                "bitwidth": 8,
                "dtype": "int",
                "is_symmetric": "True",
                "max": 0.09146185219287872,
                "min": -0.09218202531337738,
                "offset": -128,
                "scale": 0.0007201720727607608
            },
            {
                "bitwidth": 8,
                "dtype": "int",
                "is_symmetric": "True",
                "max": 0.1039084792137146,
                "min": -0.10472665727138519,
                "offset": -128,
                "scale": 0.0008181770099326968
            },
            {
                "bitwidth": 8,
                "dtype": "int",
                "is_symmetric": "True",
                "max": 0.11279510706663132,
                "min": -0.11368326097726822,
                "offset": -128,
                "scale": 0.000888150476384908
            },
            {
                "bitwidth": 8,
                "dtype": "int",
                "is_symmetric": "True",
                "max": 0.12739303708076477,
                "min": -0.128396138548851,
                "offset": -128,
                "scale": 0.0010030948324128985
            },
            {
                "bitwidth": 8,
                "dtype": "int",
                "is_symmetric": "True",
                "max": 0.12744104862213135,
                "min": -0.12844452261924744,
                "offset": -128,
                "scale": 0.0010034728329628706
            },
            {
                "bitwidth": 8,
                "dtype": "int",
                "is_symmetric": "True",
                "max": 0.13758300244808197,
                "min": -0.1386663317680359,
                "offset": -128,
                "scale": 0.0010833307169377804
            },
            {
                "bitwidth": 8,
                "dtype": "int",
                "is_symmetric": "True",
                "max": 0.10526093095541,
                "min": -0.1060897558927536,
                "offset": -128,
                "scale": 0.0008288262179121375
            },
            {
                "bitwidth": 8,
                "dtype": "int",
                "is_symmetric": "True",
                "max": 0.13452421128749847,
                "min": -0.13558346033096313,
                "offset": -128,
                "scale": 0.0010592457838356495
            }
        ],
        "fc1.weight": [
            {
                "bitwidth": 8,
                "dtype": "int",
                "is_symmetric": "True",
                "max": 0.1545393466949463,
                "min": -0.15575619041919708,
                "offset": -128,
                "scale": 0.0012168452376499772
            },
            {
                "bitwidth": 8,
                "dtype": "int",
                "is_symmetric": "True",
                "max": 0.12408477813005447,
                "min": -0.12506182491779327,
                "offset": -128,
                "scale": 0.00097704550717026
            },
            {
                "bitwidth": 8,
                "dtype": "int",
                "is_symmetric": "True",
                "max": 0.11388673633337021,
                "min": -0.11478348076343536,
                "offset": -128,
                "scale": 0.0008967459434643388
            },
            {
                "bitwidth": 8,
                "dtype": "int",
                "is_symmetric": "True",
                "max": 0.11538271605968475,
                "min": -0.11629123985767365,
                "offset": -128,
                "scale": 0.0009085253113880754
            },
            {
                "bitwidth": 8,
                "dtype": "int",
                "is_symmetric": "True",
                "max": 0.1128312423825264,
                "min": -0.11371967941522598,
                "offset": -128,
                "scale": 0.000888434995431453
            },
            {
                "bitwidth": 8,
                "dtype": "int",
                "is_symmetric": "True",
                "max": 0.09448068588972092,
                "min": -0.09522462636232376,
                "offset": -128,
                "scale": 0.0007439423934556544
            },
            {
                "bitwidth": 8,
                "dtype": "int",
                "is_symmetric": "True",
                "max": 0.09576952457427979,
                "min": -0.09652361273765564,
                "offset": -128,
                "scale": 0.0007540907245129347
            },
            {
                "bitwidth": 8,
                "dtype": "int",
                "is_symmetric": "True",
                "max": 0.11155471205711365,
                "min": -0.11243309825658798,
                "offset": -128,
                "scale": 0.0008783835801295936
            },
            {
                "bitwidth": 8,
                "dtype": "int",
                "is_symmetric": "True",
                "max": 0.023569421842694283,
                "min": -0.023755008354783058,
                "offset": -128,
                "scale": 0.00018558600277174264
            },
            {
                "bitwidth": 8,
                "dtype": "int",
                "is_symmetric": "True",
                "max": 0.028174763545393944,
                "min": -0.028396612033247948,
                "offset": -128,
                "scale": 0.0002218485315097496
            },
            {
                "bitwidth": 8,
                "dtype": "int",
                "is_symmetric": "True",
                "max": 0.09777288138866425,
                "min": -0.09854274988174438,
                "offset": -128,
                "scale": 0.000769865233451128
            },
            {
                "bitwidth": 8,
                "dtype": "int",
                "is_symmetric": "True",
                "max": 0.0235770121216774,
                "min": -0.02376265823841095,
                "offset": -128,
                "scale": 0.00018564576748758554
            },
            {
                "bitwidth": 8,
                "dtype": "int",
                "is_symmetric": "True",
                "max": 0.10925295203924179,
                "min": -0.11011321097612381,
                "offset": -128,
                "scale": 0.0008602594607509673
            },
            {
                "bitwidth": 8,
                "dtype": "int",
                "is_symmetric": "True",
                "max": 0.023336540907621384,
                "min": -0.023520292714238167,
                "offset": -128,
                "scale": 0.00018375228682998568
            },
            {
                "bitwidth": 8,
                "dtype": "int",
                "is_symmetric": "True",
                "max": 0.09274877607822418,
                "min": -0.09347908198833466,
                "offset": -128,
                "scale": 0.0007303053280338645
            },
            {
                "bitwidth": 8,
                "dtype": "int",
                "is_symmetric": "True",
                "max": 0.09528632462024689,
                "min": -0.09603661298751831,
                "offset": -128,
                "scale": 0.0007502860389649868
            },
            {
                "bitwidth": 8,
                "dtype": "int",
                "is_symmetric": "True",
                "max": 0.12334877252578735,
                "min": -0.12432002276182175,
                "offset": -128,
                "scale": 0.0009712501778267324
            },
            {
                "bitwidth": 8,
                "dtype": "int",
                "is_symmetric": "True",
                "max": 0.023578181862831116,
                "min": -0.023763837292790413,
                "offset": -128,
                "scale": 0.0001856549788499251
            },
            {
                "bitwidth": 8,
                "dtype": "int",
                "is_symmetric": "True",
                "max": 0.12818312644958496,
                "min": -0.12919244170188904,
                "offset": -128,
                "scale": 0.0010093159507960081
            },
            {
                "bitwidth": 8,
                "dtype": "int",
                "is_symmetric": "True",
                "max": 0.1288059502840042,
                "min": -0.12982016801834106,
                "offset": -128,
                "scale": 0.0010142200626432896
            },
            {
                "bitwidth": 8,
                "dtype": "int",
                "is_symmetric": "True",
                "max": 0.05054014176130295,
                "min": -0.05093809589743614,
                "offset": -128,
                "scale": 0.00039795387419871986
            },
            {
                "bitwidth": 8,
                "dtype": "int",
                "is_symmetric": "True",
                "max": 0.14826717972755432,
                "min": -0.1494346410036087,
                "offset": -128,
                "scale": 0.001167458132840693
            },
            {
                "bitwidth": 8,
                "dtype": "int",
                "is_symmetric": "True",
                "max": 0.10079950094223022,
                "min": -0.10159319639205933,
                "offset": -128,
                "scale": 0.0007936968468129635
            },
            {
                "bitwidth": 8,
                "dtype": "int",
                "is_symmetric": "True",
                "max": 0.1498367190361023,
                "min": -0.15101653337478638,
                "offset": -128,
                "scale": 0.0011798166669905186
            },
            {
                "bitwidth": 8,
                "dtype": "int",
                "is_symmetric": "True",
                "max": 0.10973232239484787,
                "min": -0.11059635877609253,
                "offset": -128,
                "scale": 0.0008640340529382229
            },
            {
                "bitwidth": 8,
                "dtype": "int",
                "is_symmetric": "True",
                "max": 0.025439564138650894,
                "min": -0.02563987486064434,
                "offset": -128,
                "scale": 0.0002003115223487839
            },
            {
                "bitwidth": 8,
                "dtype": "int",
                "is_symmetric": "True",
                "max": 0.026544230058789253,
                "min": -0.026753239333629608,
                "offset": -128,
                "scale": 0.00020900968229398131
            },
            {
                "bitwidth": 8,
                "dtype": "int",
                "is_symmetric": "True",
                "max": 0.07220113277435303,
                "min": -0.0727696418762207,
                "offset": -128,
                "scale": 0.0005685128271579742
            },
            {
                "bitwidth": 8,
                "dtype": "int",
                "is_symmetric": "True",
                "max": 0.11120889335870743,
                "min": -0.11208455264568329,
                "offset": -128,
                "scale": 0.0008756605675444007
            },
            {
                "bitwidth": 8,
                "dtype": "int",
                "is_symmetric": "True",
                "max": 0.10438299924135208,
                "min": -0.10520491003990173,
                "offset": -128,
                "scale": 0.0008219133596867323
            },
            {
                "bitwidth": 8,
                "dtype": "int",
                "is_symmetric": "True",
                "max": 0.023575885221362114,
                "min": -0.02376152202486992,
                "offset": -128,
                "scale": 0.00018563689081929624
            },
            {
                "bitwidth": 8,
                "dtype": "int",
                "is_symmetric": "True",
                "max": 0.02358272671699524,
                "min": -0.023768417537212372,
                "offset": -128,
                "scale": 0.00018569076200947165
            },
            {
                "bitwidth": 8,
                "dtype": "int",
                "is_symmetric": "True",
                "max": 0.022877689450979233,
                "min": -0.023057829588651657,
                "offset": -128,
                "scale": 0.00018013929366134107
            },
            {
                "bitwidth": 8,
                "dtype": "int",
                "is_symmetric": "True",
                "max": 0.10143713653087616,
                "min": -0.10223585367202759,
                "offset": -128,
                "scale": 0.0007987176068127155
            },
            {
                "bitwidth": 8,
                "dtype": "int",
                "is_symmetric": "True",
                "max": 0.12585709989070892,
                "min": -0.12684810161590576,
                "offset": -128,
                "scale": 0.0009910007938742638
            },
            {
                "bitwidth": 8,
                "dtype": "int",
                "is_symmetric": "True",
                "max": 0.09853244572877884,
                "min": -0.09930828958749771,
                "offset": -128,
                "scale": 0.0007758460124023259
            },
            {
                "bitwidth": 8,
                "dtype": "int",
                "is_symmetric": "True",
                "max": 0.11148881912231445,
                "min": -0.112366683781147,
                "offset": -128,
                "scale": 0.000877864717040211
            },
            {
                "bitwidth": 8,
                "dtype": "int",
                "is_symmetric": "True",
                "max": 0.10822536051273346,
                "min": -0.10907752811908722,
                "offset": -128,
                "scale": 0.0008521681884303689
            },
            {
                "bitwidth": 8,
                "dtype": "int",
                "is_symmetric": "True",
                "max": 0.13376590609550476,
                "min": -0.1348191797733307,
                "offset": -128,
                "scale": 0.001053274841979146
            },
            {
                "bitwidth": 8,
                "dtype": "int",
                "is_symmetric": "True",
                "max": 0.06175966560840607,
                "min": -0.06224596127867699,
                "offset": -128,
                "scale": 0.00048629657248966396
            },
            {
                "bitwidth": 8,
                "dtype": "int",
                "is_symmetric": "True",
                "max": 0.02357540652155876,
                "min": -0.023761039599776268,
                "offset": -128,
                "scale": 0.0001856331218732521
            },
            {
                "bitwidth": 8,
                "dtype": "int",
                "is_symmetric": "True",
                "max": 0.1130194291472435,
                "min": -0.11390934884548187,
                "offset": -128,
                "scale": 0.0008899167878553271
            },
            {
                "bitwidth": 8,
                "dtype": "int",
                "is_symmetric": "True",
                "max": 0.12605002522468567,
                "min": -0.12704254686832428,
                "offset": -128,
                "scale": 0.0009925198974087834
            },
            {
                "bitwidth": 8,
                "dtype": "int",
                "is_symmetric": "True",
                "max": 0.022905420511960983,
                "min": -0.023085778579115868,
                "offset": -128,
                "scale": 0.00018035764514934272
            },
            {
                "bitwidth": 8,
                "dtype": "int",
                "is_symmetric": "True",
                "max": 0.032866787165403366,
                "min": -0.03312557935714722,
                "offset": -128,
                "scale": 0.00025879358872771263
            },
            {
                "bitwidth": 8,
                "dtype": "int",
                "is_symmetric": "True",
                "max": 0.13382822275161743,
                "min": -0.13488198816776276,
                "offset": -128,
                "scale": 0.0010537655325606465
            },
            {
                "bitwidth": 8,
                "dtype": "int",
                "is_symmetric": "True",
                "max": 0.10522621124982834,
                "min": -0.10605476051568985,
                "offset": -128,
                "scale": 0.000828552816528827
            },
            {
                "bitwidth": 8,
                "dtype": "int",
                "is_symmetric": "True",
                "max": 0.12865710258483887,
                "min": -0.1296701431274414,
                "offset": -128,
                "scale": 0.001013047993183136
            },
            {
                "bitwidth": 8,
                "dtype": "int",
                "is_symmetric": "True",
                "max": 0.09807707369327545,
                "min": -0.0988493338227272,
                "offset": -128,
                "scale": 0.0007722604204900563
            },
            {
                "bitwidth": 8,
                "dtype": "int",
                "is_symmetric": "True",
                "max": 0.09403956681489944,
                "min": -0.09478003531694412,
                "offset": -128,
                "scale": 0.000740469025913626
            },
            {
                "bitwidth": 8,
                "dtype": "int",
                "is_symmetric": "True",
                "max": 0.06012706458568573,
                "min": -0.06060050427913666,
                "offset": -128,
                "scale": 0.00047344143968075514
            },
            {
                "bitwidth": 8,
                "dtype": "int",
                "is_symmetric": "True",
                "max": 0.02333187498152256,
                "min": -0.023515591397881508,
                "offset": -128,
                "scale": 0.00018371555779594928
            },
            {
                "bitwidth": 8,
                "dtype": "int",
                "is_symmetric": "True",
                "max": 0.025941848754882812,
                "min": -0.026146115735173225,
                "offset": -128,
                "scale": 0.00020426652918104082
            },
            {
                "bitwidth": 8,
                "dtype": "int",
                "is_symmetric": "True",
                "max": 0.12382375448942184,
                "min": -0.1247987449169159,
                "offset": -128,
                "scale": 0.0009749901946634054
            },
            {
                "bitwidth": 8,
                "dtype": "int",
                "is_symmetric": "True",
                "max": 0.023587454110383987,
                "min": -0.023773182183504105,
                "offset": -128,
                "scale": 0.00018572798580862582
            },
            {
                "bitwidth": 8,
                "dtype": "int",
                "is_symmetric": "True",
                "max": 0.08812074363231659,
                "min": -0.08881460875272751,
                "offset": -128,
                "scale": 0.0006938641308806837
            },
            {
                "bitwidth": 8,
                "dtype": "int",
                "is_symmetric": "True",
                "max": 0.02357453666627407,
                "min": -0.02376016229391098,
                "offset": -128,
                "scale": 0.00018562626792117953
            },
            {
                "bitwidth": 8,
                "dtype": "int",
                "is_symmetric": "True",
                "max": 0.13883833587169647,
                "min": -0.1399315446615219,
                "offset": -128,
                "scale": 0.00109321519266814
            },
            {
                "bitwidth": 8,
                "dtype": "int",
                "is_symmetric": "True",
                "max": 0.023820368573069572,
                "min": -0.024007931351661682,
                "offset": -128,
                "scale": 0.0001875619636848569
            },
            {
                "bitwidth": 8,
                "dtype": "int",
                "is_symmetric": "True",
                "max": 0.023584667593240738,
                "min": -0.023770373314619064,
                "offset": -128,
                "scale": 0.00018570604152046144
            },
            {
                "bitwidth": 8,
                "dtype": "int",
                "is_symmetric": "True",
                "max": 0.023588960990309715,
                "min": -0.023774700239300728,
                "offset": -128,
                "scale": 0.00018573984561953694
            },
            {
                "bitwidth": 8,
                "dtype": "int",
                "is_symmetric": "True",
                "max": 0.1240110769867897,
                "min": -0.12498754262924194,
                "offset": -128,
                "scale": 0.0009764651767909527
            },
            {
                "bitwidth": 8,
                "dtype": "int",
                "is_symmetric": "True",
                "max": 0.042490873485803604,
                "min": -0.04282544553279877,
                "offset": -128,
                "scale": 0.00033457379322499037
            },
            {
                "bitwidth": 8,
                "dtype": "int",
                "is_symmetric": "True",
                "max": 0.09384235739707947,
                "min": -0.09458127617835999,
                "offset": -128,
                "scale": 0.0007389162201434374
            },
            {
                "bitwidth": 8,
                "dtype": "int",
                "is_symmetric": "True",
                "max": 0.08515600115060806,
                "min": -0.08582652360200882,
                "offset": -128,
                "scale": 0.0006705197156406939
            },
            {
                "bitwidth": 8,
                "dtype": "int",
                "is_symmetric": "True",
                "max": 0.11402561515569687,
                "min": -0.11492345482110977,
                "offset": -128,
                "scale": 0.0008978394907899201
            },
            {
                "bitwidth": 8,
                "dtype": "int",
                "is_symmetric": "True",
                "max": 0.10886193066835403,
                "min": -0.10971911251544952,
                "offset": -128,
                "scale": 0.0008571805665269494
            },
            {
                "bitwidth": 8,
                "dtype": "int",
                "is_symmetric": "True",
                "max": 0.09033617377281189,
                "min": -0.09104748070240021,
                "offset": -128,
                "scale": 0.0007113084429875016
            },
            {
                "bitwidth": 8,
                "dtype": "int",
                "is_symmetric": "True",
                "max": 0.029061682522296906,
                "min": -0.029290514066815376,
                "offset": -128,
                "scale": 0.00022883214114699513
            },
            {
                "bitwidth": 8,
                "dtype": "int",
                "is_symmetric": "True",
                "max": 0.02334817498922348,
                "min": -0.023532018065452576,
                "offset": -128,
                "scale": 0.00018384389113634825
            },
            {
                "bitwidth": 8,
                "dtype": "int",
                "is_symmetric": "True",
                "max": 0.02286621741950512,
                "min": -0.02304626628756523,
                "offset": -128,
                "scale": 0.00018004895537160337
            },
            {
                "bitwidth": 8,
                "dtype": "int",
                "is_symmetric": "True",
                "max": 0.11521486937999725,
                "min": -0.11612207442522049,
                "offset": -128,
                "scale": 0.0009072037064470351
            },
            {
                "bitwidth": 8,
                "dtype": "int",
                "is_symmetric": "True",
                "max": 0.11352381110191345,
                "min": -0.11441770195960999,
                "offset": -128,
                "scale": 0.000893888296559453
            },
            {
                "bitwidth": 8,
                "dtype": "int",
                "is_symmetric": "True",
                "max": 0.1255882978439331,
                "min": -0.12657718360424042,
                "offset": -128,
                "scale": 0.0009888842469081283
            },
            {
                "bitwidth": 8,
                "dtype": "int",
                "is_symmetric": "True",
                "max": 0.02381933480501175,
                "min": -0.024006888270378113,
                "offset": -128,
                "scale": 0.000187553814612329
            },
            {
                "bitwidth": 8,
                "dtype": "int",
                "is_symmetric": "True",
                "max": 0.023320723325014114,
                "min": -0.0235043503344059,
                "offset": -128,
                "scale": 0.00018362773698754609
            },
            {
                "bitwidth": 8,
                "dtype": "int",
                "is_symmetric": "True",
                "max": 0.02248218096792698,
                "min": -0.02265920676290989,
                "offset": -128,
                "scale": 0.0001770250528352335
            },
            {
                "bitwidth": 8,
                "dtype": "int",
                "is_symmetric": "True",
                "max": 0.023582138121128082,
                "min": -0.023767823353409767,
                "offset": -128,
                "scale": 0.0001856861199485138
            },
            {
                "bitwidth": 8,
                "dtype": "int",
                "is_symmetric": "True",
                "max": 0.17411570250988007,
                "min": -0.1754866987466812,
                "offset": -128,
                "scale": 0.001370989833958447
            },
            {
                "bitwidth": 8,
                "dtype": "int",
                "is_symmetric": "True",
                "max": 0.05822281539440155,
                "min": -0.05868126451969147,
                "offset": -128,
                "scale": 0.0004584473790600896
            },
            {
                "bitwidth": 8,
                "dtype": "int",
                "is_symmetric": "True",
                "max": 0.11695344746112823,
                "min": -0.11787433922290802,
                "offset": -128,
                "scale": 0.0009208932751789689
            },
            {
                "bitwidth": 8,
                "dtype": "int",
                "is_symmetric": "True",
                "max": 0.08640921860933304,
                "min": -0.08708960562944412,
                "offset": -128,
                "scale": 0.0006803875439800322
            },
            {
                "bitwidth": 8,
                "dtype": "int",
                "is_symmetric": "True",
                "max": 0.02358555793762207,
                "min": -0.023771271109580994,
                "offset": -128,
                "scale": 0.0001857130555436015
            },
            {
                "bitwidth": 8,
                "dtype": "int",
                "is_symmetric": "True",
                "max": 0.09730616956949234,
                "min": -0.0980723574757576,
                "offset": -128,
                "scale": 0.0007661902927793562
            },
            {
                "bitwidth": 8,
                "dtype": "int",
                "is_symmetric": "True",
                "max": 0.025677090510725975,
                "min": -0.0258792731910944,
                "offset": -128,
                "scale": 0.000202181821805425
            },
            {
                "bitwidth": 8,
                "dtype": "int",
                "is_symmetric": "True",
                "max": 0.13257421553134918,
                "min": -0.13361810147762299,
                "offset": -128,
                "scale": 0.0010438914177939296
            },
            {
                "bitwidth": 8,
                "dtype": "int",
                "is_symmetric": "True",
                "max": 0.08949968218803406,
                "min": -0.0902044028043747,
                "offset": -128,
                "scale": 0.0007047218969091773
            },
            {
                "bitwidth": 8,
                "dtype": "int",
                "is_symmetric": "True",
                "max": 0.022837383672595024,
                "min": -0.02301720529794693,
                "offset": -128,
                "scale": 0.0001798219163902104
            },
            {
                "bitwidth": 8,
                "dtype": "int",
                "is_symmetric": "True",
                "max": 0.10802029818296432,
                "min": -0.10887084901332855,
                "offset": -128,
                "scale": 0.0008505535079166293
            },
            {
                "bitwidth": 8,
                "dtype": "int",
                "is_symmetric": "True",
                "max": 0.023550890386104584,
                "min": -0.02373632974922657,
                "offset": -128,
                "scale": 0.00018544007616583258
            },
            {
                "bitwidth": 8,
                "dtype": "int",
                "is_symmetric": "True",
                "max": 0.08971530199050903,
                "min": -0.09042172133922577,
                "offset": -128,
                "scale": 0.0007064196979627013
            },
            {
                "bitwidth": 8,
                "dtype": "int",
                "is_symmetric": "True",
                "max": 0.11964387446641922,
                "min": -0.12058595567941666,
                "offset": -128,
                "scale": 0.0009420777787454426
            },
            {
                "bitwidth": 8,
                "dtype": "int",
                "is_symmetric": "True",
                "max": 0.09262408316135406,
                "min": -0.09335340559482574,
                "offset": -128,
                "scale": 0.0007293234812095761
            },
            {
                "bitwidth": 8,
                "dtype": "int",
                "is_symmetric": "True",
                "max": 0.14397521317005157,
                "min": -0.1451088786125183,
                "offset": -128,
                "scale": 0.0011336631141602993
            },
            {
                "bitwidth": 8,
                "dtype": "int",
                "is_symmetric": "True",
                "max": 0.025236571207642555,
                "min": -0.02543528378009796,
                "offset": -128,
                "scale": 0.00019871315453201532
            },
            {
                "bitwidth": 8,
                "dtype": "int",
                "is_symmetric": "True",
                "max": 0.09764596819877625,
                "min": -0.0984148308634758,
                "offset": -128,
                "scale": 0.0007688658661209047
            },
            {
                "bitwidth": 8,
                "dtype": "int",
                "is_symmetric": "True",
                "max": 0.13144871592521667,
                "min": -0.13248375058174133,
                "offset": -128,
                "scale": 0.0010350293014198542
            },
            {
                "bitwidth": 8,
                "dtype": "int",
                "is_symmetric": "True",
                "max": 0.10643360763788223,
                "min": -0.10727166384458542,
                "offset": -128,
                "scale": 0.0008380598737858236
            },
            {
                "bitwidth": 8,
                "dtype": "int",
                "is_symmetric": "True",
                "max": 0.02248671092092991,
                "min": -0.022663772106170654,
                "offset": -128,
                "scale": 0.00017706071957945824
            },
            {
                "bitwidth": 8,
                "dtype": "int",
                "is_symmetric": "True",
                "max": 0.13313168287277222,
                "min": -0.1341799646615982,
                "offset": -128,
                "scale": 0.001048280973918736
            },
            {
                "bitwidth": 8,
                "dtype": "int",
                "is_symmetric": "True",
                "max": 0.11582177877426147,
                "min": -0.11673375964164734,
                "offset": -128,
                "scale": 0.0009119824972003698
            },
            {
                "bitwidth": 8,
                "dtype": "int",
                "is_symmetric": "True",
                "max": 0.1231418177485466,
                "min": -0.12411143630743027,
                "offset": -128,
                "scale": 0.000969620596151799
            },
            {
                "bitwidth": 8,
                "dtype": "int",
                "is_symmetric": "True",
                "max": 0.1364179104566574,
                "min": -0.13749206066131592,
                "offset": -128,
                "scale": 0.0010741567239165306
            },
            {
                "bitwidth": 8,
                "dtype": "int",
                "is_symmetric": "True",
                "max": 0.023804962635040283,
                "min": -0.023992402479052544,
                "offset": -128,
                "scale": 0.000187440644367598
            },
            {
                "bitwidth": 8,
                "dtype": "int",
                "is_symmetric": "True",
                "max": 0.02358837053179741,
                "min": -0.023774106055498123,
                "offset": -128,
                "scale": 0.0001857352035585791
            },
            {
                "bitwidth": 8,
                "dtype": "int",
                "is_symmetric": "True",
                "max": 0.13035167753696442,
                "min": -0.13137806951999664,
                "offset": -128,
                "scale": 0.0010263911681249738
            },
            {
                "bitwidth": 8,
                "dtype": "int",
                "is_symmetric": "True",
                "max": 0.10712776333093643,
                "min": -0.10797128826379776,
                "offset": -128,
                "scale": 0.00084352568956092
            },
            {
                "bitwidth": 8,
                "dtype": "int",
                "is_symmetric": "True",
                "max": 0.15415629744529724,
                "min": -0.15537013113498688,
                "offset": -128,
                "scale": 0.001213829149492085
            },
            {
                "bitwidth": 8,
                "dtype": "int",
                "is_symmetric": "True",
                "max": 0.10903527587652206,
                "min": -0.10989382117986679,
                "offset": -128,
                "scale": 0.0008585454779677093
            },
            {
                "bitwidth": 8,
                "dtype": "int",
